unsigned char slip_ratio_model_tflite[] = {
  0x1c, 0x00, 0x00, 0x00, 0x54, 0x46, 0x4c, 0x33, 0x14, 0x00, 0x20, 0x00,
  0x1c, 0x00, 0x18, 0x00, 0x14, 0x00, 0x10, 0x00, 0x0c, 0x00, 0x00, 0x00,
  0x08, 0x00, 0x04, 0x00, 0x14, 0x00, 0x00, 0x00, 0x1c, 0x00, 0x00, 0x00,
  0x8c, 0x00, 0x00, 0x00, 0xe4, 0x00, 0x00, 0x00, 0x98, 0x09, 0x00, 0x00,
  0xa8, 0x09, 0x00, 0x00, 0x5c, 0x10, 0x00, 0x00, 0x03, 0x00, 0x00, 0x00,
  0x01, 0x00, 0x00, 0x00, 0x04, 0x00, 0x00, 0x00, 0x96, 0xf5, 0xff, 0xff,
  0x0c, 0x00, 0x00, 0x00, 0x1c, 0x00, 0x00, 0x00, 0x3c, 0x00, 0x00, 0x00,
  0x0f, 0x00, 0x00, 0x00, 0x73, 0x65, 0x72, 0x76, 0x69, 0x6e, 0x67, 0x5f,
  0x64, 0x65, 0x66, 0x61, 0x75, 0x6c, 0x74, 0x00, 0x01, 0x00, 0x00, 0x00,
  0x04, 0x00, 0x00, 0x00, 0x90, 0xff, 0xff, 0xff, 0x0b, 0x00, 0x00, 0x00,
  0x04, 0x00, 0x00, 0x00, 0x08, 0x00, 0x00, 0x00, 0x6f, 0x75, 0x74, 0x70,
  0x75, 0x74, 0x5f, 0x30, 0x00, 0x00, 0x00, 0x00, 0x01, 0x00, 0x00, 0x00,
  0x04, 0x00, 0x00, 0x00, 0x1a, 0xf7, 0xff, 0xff, 0x04, 0x00, 0x00, 0x00,
  0x0d, 0x00, 0x00, 0x00, 0x69, 0x6e, 0x70, 0x75, 0x74, 0x5f, 0x6c, 0x61,
  0x79, 0x65, 0x72, 0x5f, 0x31, 0x00, 0x00, 0x00, 0x02, 0x00, 0x00, 0x00,
  0x34, 0x00, 0x00, 0x00, 0x04, 0x00, 0x00, 0x00, 0xdc, 0xff, 0xff, 0xff,
  0x0e, 0x00, 0x00, 0x00, 0x04, 0x00, 0x00, 0x00, 0x13, 0x00, 0x00, 0x00,
  0x43, 0x4f, 0x4e, 0x56, 0x45, 0x52, 0x53, 0x49, 0x4f, 0x4e, 0x5f, 0x4d,
  0x45, 0x54, 0x41, 0x44, 0x41, 0x54, 0x41, 0x00, 0x08, 0x00, 0x0c, 0x00,
  0x08, 0x00, 0x04, 0x00, 0x08, 0x00, 0x00, 0x00, 0x0d, 0x00, 0x00, 0x00,
  0x04, 0x00, 0x00, 0x00, 0x13, 0x00, 0x00, 0x00, 0x6d, 0x69, 0x6e, 0x5f,
  0x72, 0x75, 0x6e, 0x74, 0x69, 0x6d, 0x65, 0x5f, 0x76, 0x65, 0x72, 0x73,
  0x69, 0x6f, 0x6e, 0x00, 0x0f, 0x00, 0x00, 0x00, 0xb0, 0x08, 0x00, 0x00,
  0xa8, 0x08, 0x00, 0x00, 0x68, 0x08, 0x00, 0x00, 0xd0, 0x03, 0x00, 0x00,
  0x90, 0x03, 0x00, 0x00, 0x7c, 0x03, 0x00, 0x00, 0x2c, 0x01, 0x00, 0x00,
  0xbc, 0x00, 0x00, 0x00, 0xb4, 0x00, 0x00, 0x00, 0xac, 0x00, 0x00, 0x00,
  0xa4, 0x00, 0x00, 0x00, 0x9c, 0x00, 0x00, 0x00, 0x94, 0x00, 0x00, 0x00,
  0x74, 0x00, 0x00, 0x00, 0x04, 0x00, 0x00, 0x00, 0xd2, 0xf7, 0xff, 0xff,
  0x04, 0x00, 0x00, 0x00, 0x60, 0x00, 0x00, 0x00, 0x0c, 0x00, 0x00, 0x00,
  0x08, 0x00, 0x0e, 0x00, 0x08, 0x00, 0x04, 0x00, 0x08, 0x00, 0x00, 0x00,
  0x10, 0x00, 0x00, 0x00, 0x28, 0x00, 0x00, 0x00, 0x00, 0x00, 0x06, 0x00,
  0x08, 0x00, 0x04, 0x00, 0x06, 0x00, 0x00, 0x00, 0x04, 0x00, 0x00, 0x00,
  0x01, 0x00, 0x00, 0x00, 0xea, 0x03, 0x00, 0x00, 0x0c, 0x00, 0x18, 0x00,
  0x14, 0x00, 0x10, 0x00, 0x0c, 0x00, 0x04, 0x00, 0x0c, 0x00, 0x00, 0x00,
  0xfe, 0x29, 0x50, 0xeb, 0x70, 0x7e, 0x32, 0x0e, 0x02, 0x00, 0x00, 0x00,
  0x02, 0x00, 0x00, 0x00, 0x04, 0x00, 0x00, 0x00, 0x06, 0x00, 0x00, 0x00,
  0x32, 0x2e, 0x31, 0x39, 0x2e, 0x30, 0x00, 0x00, 0x3e, 0xf8, 0xff, 0xff,
  0x04, 0x00, 0x00, 0x00, 0x10, 0x00, 0x00, 0x00, 0x31, 0x2e, 0x31, 0x34,
  0x2e, 0x30, 0x00, 0x00, 0x00, 0x00, 0x00, 0x00, 0x00, 0x00, 0x00, 0x00,
  0x7c, 0xf1, 0xff, 0xff, 0x80, 0xf1, 0xff, 0xff, 0x84, 0xf1, 0xff, 0xff,
  0x88, 0xf1, 0xff, 0xff, 0x8c, 0xf1, 0xff, 0xff, 0x6e, 0xf8, 0xff, 0xff,
  0x04, 0x00, 0x00, 0x00, 0x60, 0x00, 0x00, 0x00, 0x7d, 0x4b, 0xa1, 0x3f,
  0x9d, 0xc3, 0xa6, 0xbf, 0x34, 0x71, 0xbb, 0xbf, 0x11, 0xb1, 0x1d, 0xc0,
  0x1c, 0xfe, 0x54, 0x3e, 0xce, 0x8b, 0x1a, 0x3f, 0x0c, 0xfd, 0x27, 0x40,
  0xb3, 0xee, 0x0b, 0xc0, 0xf5, 0x2e, 0xfd, 0xbe, 0x8f, 0x51, 0xff, 0xbe,
  0x52, 0xbc, 0x8d, 0x3f, 0xd8, 0x5d, 0xd6, 0xbf, 0x8e, 0x84, 0xf3, 0x3f,
  0x48, 0x49, 0x3f, 0x40, 0x63, 0x90, 0xb9, 0x3f, 0x62, 0xee, 0x9c, 0x3f,
  0x49, 0xf1, 0xbb, 0xbf, 0x93, 0x3c, 0xd3, 0x3e, 0x4d, 0x8c, 0x0b, 0x3f,
  0x11, 0x3c, 0x83, 0x3f, 0x4a, 0xff, 0xe0, 0x3f, 0xc2, 0x99, 0x4f, 0xbf,
  0xbe, 0xdd, 0x1c, 0xc0, 0x6e, 0xce, 0xca, 0x3f, 0xda, 0xf8, 0xff, 0xff,
  0x04, 0x00, 0x00, 0x00, 0x40, 0x02, 0x00, 0x00, 0xbb, 0x38, 0x8f, 0xbe,
  0xb6, 0xad, 0x4a, 0x3d, 0x17, 0x71, 0x7a, 0xbf, 0x2d, 0xcc, 0x9d, 0xbd,
  0xe9, 0xa9, 0x23, 0x3d, 0xb1, 0x66, 0xf3, 0x3b, 0x8a, 0x66, 0x30, 0x3c,
  0x79, 0x26, 0xc0, 0xbe, 0x9f, 0xee, 0x92, 0xbe, 0x2a, 0x71, 0x59, 0xbe,
  0xce, 0x6e, 0x3c, 0xbc, 0x4f, 0x45, 0xae, 0x3d, 0x91, 0xb5, 0x04, 0xbd,
  0x27, 0xe9, 0xc2, 0xbc, 0xe4, 0x58, 0x22, 0xbf, 0x1e, 0xfc, 0x14, 0x3d,
  0x60, 0x94, 0x52, 0xbd, 0x21, 0x31, 0x4c, 0x3c, 0x07, 0x6a, 0x6b, 0x3f,
  0x87, 0x19, 0xed, 0xbf, 0xe4, 0xdf, 0xe5, 0xbe, 0xb6, 0xa6, 0xa3, 0xbe,
  0x25, 0xf5, 0xbe, 0x3e, 0x9c, 0xc2, 0xb0, 0xbc, 0xb6, 0x24, 0xfc, 0x3d,
  0x4b, 0x21, 0xf5, 0x3d, 0xdf, 0x44, 0xe7, 0x3f, 0x8c, 0x61, 0xa6, 0xbd,
  0xea, 0x18, 0xc2, 0x3d, 0x51, 0x09, 0x81, 0xbc, 0xd2, 0xe1, 0x0e, 0x3d,
  0xa9, 0xec, 0xda, 0x3d, 0x94, 0x33, 0xfb, 0xbc, 0x4e, 0x1b, 0x0d, 0xbe,
  0xfd, 0xd5, 0xde, 0x3d, 0x0f, 0xd2, 0x2a, 0x3e, 0x43, 0x84, 0x30, 0xc0,
  0xa6, 0xb8, 0x84, 0x40, 0xc5, 0x45, 0xa8, 0x3e, 0x44, 0xaa, 0x4b, 0xbe,
  0xf0, 0x37, 0x6a, 0x3e, 0x67, 0x5b, 0xb8, 0x3c, 0xb0, 0x28, 0xc0, 0xbf,
  0x58, 0x80, 0x85, 0x3f, 0xc9, 0x3a, 0x0f, 0x3f, 0x2f, 0x79, 0x5f, 0x3e,
  0x3c, 0x93, 0x63, 0xbe, 0x1a, 0xe9, 0x90, 0x3c, 0x37, 0x56, 0x94, 0xbf,
  0xd9, 0xe5, 0xfb, 0xbe, 0x77, 0x12, 0x77, 0x3e, 0x9f, 0x58, 0xe3, 0x3d,
  0x74, 0x97, 0x91, 0xbd, 0x83, 0xcd, 0x81, 0x3c, 0xab, 0x7e, 0x93, 0xc0,
  0x51, 0xd3, 0x90, 0x40, 0x22, 0x75, 0x02, 0x3d, 0xda, 0xa9, 0xdb, 0xbd,
  0xd2, 0xd4, 0xbe, 0x3d, 0x8e, 0xbe, 0x3a, 0xbd, 0x3e, 0x7e, 0xb0, 0x3e,
  0x05, 0x60, 0xfd, 0xbb, 0x06, 0xf2, 0x06, 0x3e, 0x30, 0x1f, 0x09, 0xbe,
  0x50, 0xe7, 0x0b, 0xbe, 0x55, 0x72, 0x2e, 0xbe, 0x30, 0x2e, 0x86, 0xbf,
  0x20, 0x78, 0x28, 0x3f, 0xc6, 0x41, 0x81, 0xbe, 0x0f, 0x04, 0x27, 0xbd,
  0x60, 0xab, 0x9e, 0x3d, 0x0a, 0x1d, 0x0c, 0xbd, 0x2d, 0x7a, 0xe8, 0x3c,
  0xcf, 0x7b, 0x54, 0x3d, 0xd9, 0xca, 0x52, 0x3f, 0x26, 0xc7, 0x9f, 0xbb,
  0x66, 0x37, 0x95, 0x3c, 0xd7, 0xca, 0x42, 0xbd, 0x17, 0xa7, 0xa9, 0x40,
  0xf0, 0xb2, 0x74, 0xc0, 0x81, 0xb0, 0xb0, 0xbd, 0xec, 0x97, 0xff, 0x3d,
  0x51, 0xcb, 0xd2, 0xbd, 0x65, 0xa4, 0x8c, 0xbb, 0x18, 0x81, 0x0f, 0xbf,
  0xaa, 0xe6, 0x64, 0x3f, 0x8a, 0xca, 0xe4, 0x3d, 0xfb, 0xa8, 0xe5, 0xbd,
  0xc6, 0x88, 0x92, 0x3d, 0xf5, 0xd3, 0xac, 0x3b, 0xbe, 0x63, 0xf9, 0x3e,
  0x27, 0x81, 0xa9, 0xbe, 0x21, 0x0d, 0xb5, 0xbe, 0xe2, 0x48, 0xe9, 0x3d,
  0xd1, 0x5f, 0x14, 0xbe, 0x2c, 0xdd, 0x13, 0x3c, 0xcb, 0xf2, 0x77, 0xbe,
  0xb9, 0xab, 0x45, 0x3d, 0xaa, 0x0a, 0x21, 0x3f, 0x19, 0x9c, 0x90, 0x3d,
  0x99, 0x75, 0x72, 0xbc, 0x86, 0x8f, 0x72, 0xba, 0x99, 0xeb, 0x1c, 0x3e,
  0xdb, 0x3b, 0x55, 0x3e, 0x09, 0x5b, 0xd4, 0xbf, 0xe2, 0xca, 0xf9, 0xbd,
  0xd6, 0x85, 0x03, 0x3d, 0x6c, 0x60, 0x22, 0xbc, 0xf2, 0xac, 0xe8, 0x3e,
  0xaf, 0xeb, 0x9b, 0x3e, 0xea, 0xdf, 0xde, 0x3e, 0x5d, 0x31, 0x83, 0xbc,
  0x1a, 0xbe, 0x18, 0x3e, 0x06, 0x9f, 0x07, 0x3d, 0x9f, 0x25, 0xc7, 0xbe,
  0x33, 0x1f, 0x54, 0xbe, 0x2b, 0x52, 0x25, 0xbf, 0xeb, 0x47, 0x7d, 0xbd,
  0xe9, 0x2d, 0x7a, 0x3d, 0x24, 0xfc, 0x6c, 0x3d, 0x96, 0x4d, 0xe2, 0xbd,
  0x24, 0x7c, 0x89, 0x3e, 0x0a, 0xbc, 0x16, 0x3f, 0x54, 0x8e, 0x83, 0xbb,
  0x5e, 0x3e, 0x17, 0xbc, 0xc3, 0x33, 0x9f, 0x3d, 0x2d, 0x72, 0x47, 0x3e,
  0x7d, 0xc6, 0x5b, 0x3f, 0x43, 0xb4, 0xe7, 0xbe, 0x10, 0xa0, 0x59, 0x3e,
  0xbf, 0xec, 0x23, 0xbe, 0x39, 0x3c, 0x3d, 0xbd, 0x04, 0x0b, 0xad, 0x40,
  0x28, 0x25, 0xcd, 0xc0, 0xc3, 0xc1, 0x57, 0x3e, 0xad, 0x79, 0x1f, 0xbb,
  0xd5, 0x6c, 0xb2, 0x3d, 0xbc, 0x86, 0xaf, 0x3d, 0xba, 0x16, 0xcf, 0xbf,
  0xee, 0xff, 0x22, 0x40, 0xc2, 0x6a, 0xf3, 0xbe, 0x18, 0xcf, 0x9e, 0x3d,
  0xa9, 0x94, 0xce, 0xbd, 0x62, 0xd1, 0x2b, 0x3c, 0x26, 0xfb, 0xff, 0xff,
  0x04, 0x00, 0x00, 0x00, 0x04, 0x00, 0x00, 0x00, 0xa5, 0xef, 0x70, 0xbd,
  0x36, 0xfb, 0xff, 0xff, 0x04, 0x00, 0x00, 0x00, 0x30, 0x00, 0x00, 0x00,
  0xaa, 0x31, 0x90, 0x3e, 0xdc, 0xa1, 0x99, 0x3e, 0x63, 0xeb, 0x8a, 0xbe,
  0x9f, 0x12, 0x76, 0xbd, 0x5b, 0x66, 0x45, 0x3e, 0xca, 0xfc, 0xe9, 0x3d,
  0xb0, 0xb6, 0x15, 0x3e, 0xc8, 0x6b, 0x62, 0xbe, 0x95, 0xa8, 0x98, 0xbe,
  0xc7, 0x83, 0x44, 0xbe, 0xf2, 0x46, 0x73, 0x3e, 0x06, 0x81, 0xe4, 0x3e,
  0x72, 0xfb, 0xff, 0xff, 0x04, 0x00, 0x00, 0x00, 0x80, 0x04, 0x00, 0x00,
  0x24, 0x40, 0x76, 0x3d, 0x9e, 0x0c, 0x65, 0x3f, 0x84, 0x54, 0xc0, 0x3e,
  0x97, 0x35, 0x3b, 0x3f, 0xa5, 0x8e, 0x15, 0xbf, 0xc2, 0x64, 0xab, 0xbe,
  0xe4, 0x22, 0x35, 0xbf, 0x1e, 0xa3, 0x4e, 0xbe, 0x57, 0x70, 0x63, 0x3d,
  0xcf, 0x83, 0x24, 0xbe, 0x06, 0x0c, 0x2a, 0xbf, 0x6d, 0xe7, 0x29, 0x3f,
  0x67, 0x4f, 0x55, 0xbf, 0x12, 0xbe, 0x0d, 0xbf, 0xcf, 0x3e, 0xdf, 0xbe,
  0x8e, 0x66, 0xd3, 0xbc, 0xe6, 0x38, 0xde, 0xbe, 0x63, 0x2b, 0xa1, 0x3e,
  0xdf, 0xfc, 0xee, 0xbd, 0xad, 0xe7, 0x19, 0x3f, 0x54, 0x26, 0x5a, 0xbf,
  0x5d, 0x26, 0xd4, 0xbe, 0xc9, 0x3a, 0x5f, 0x3d, 0x05, 0xbb, 0x95, 0x3d,
  0x58, 0xaf, 0x47, 0xbf, 0x1d, 0x53, 0x18, 0xbe, 0x49, 0x71, 0xde, 0xc0,
  0x1f, 0xd3, 0x87, 0x3e, 0xf8, 0x5c, 0x1b, 0xc0, 0x56, 0x50, 0x14, 0x3f,
  0x6c, 0xa1, 0xcc, 0x3f, 0x1e, 0x99, 0x7b, 0x40, 0x21, 0x6f, 0xcf, 0x3f,
  0x67, 0x10, 0xb0, 0x3f, 0x74, 0x36, 0x05, 0x3f, 0x06, 0x2a, 0xfb, 0xbf,
  0x6c, 0x52, 0x9b, 0x40, 0xa5, 0xee, 0xc2, 0x3f, 0x55, 0x18, 0xe2, 0xbf,
  0xd2, 0x42, 0xc3, 0xc0, 0xd3, 0x99, 0xfd, 0x40, 0xdc, 0x94, 0xae, 0x3e,
  0x8b, 0x47, 0x37, 0x3f, 0x63, 0x2e, 0x80, 0xbf, 0x54, 0xd6, 0xfd, 0x3f,
  0x08, 0x86, 0x89, 0x3e, 0xa0, 0xc2, 0x7e, 0x3f, 0x86, 0x00, 0xd7, 0xbf,
  0x32, 0xde, 0xdd, 0x3e, 0x74, 0x7f, 0x12, 0x3e, 0x95, 0x82, 0xc6, 0x3e,
  0x85, 0xde, 0x4c, 0xbe, 0x3b, 0x37, 0x8b, 0x3f, 0x86, 0xc7, 0x9b, 0xbe,
  0xda, 0xb8, 0xb6, 0x3e, 0xeb, 0x0d, 0x99, 0xbf, 0x44, 0x28, 0xbb, 0xbe,
  0x3c, 0xf4, 0x15, 0x3e, 0x9d, 0xd1, 0x58, 0xbe, 0x1c, 0xcf, 0x39, 0xbf,
  0x32, 0x03, 0x1d, 0x3e, 0xc4, 0xc0, 0xab, 0x40, 0x60, 0xa8, 0xe9, 0xbd,
  0x32, 0xd0, 0xdc, 0x3f, 0xaa, 0x40, 0x23, 0xbf, 0xd6, 0x32, 0x26, 0xbe,
  0x43, 0x0a, 0x44, 0xbe, 0x9b, 0xf6, 0x83, 0x3f, 0x3d, 0xf2, 0x8d, 0x3e,
  0xd2, 0x49, 0x01, 0x3e, 0x05, 0x7a, 0x24, 0x3f, 0x11, 0x84, 0x98, 0xbf,
  0x88, 0x3d, 0x47, 0xc0, 0x47, 0x4e, 0x88, 0xc0, 0xf2, 0x7c, 0x1b, 0x41,
  0xd4, 0x9f, 0x3f, 0x40, 0xc5, 0x6b, 0xf8, 0x40, 0x65, 0xa8, 0x2f, 0x3f,
  0xe0, 0x82, 0xae, 0xbe, 0xbc, 0xfa, 0x28, 0xbf, 0x73, 0xf7, 0x8b, 0x3f,
  0xb0, 0x99, 0x0c, 0xc1, 0x6c, 0x0e, 0x1b, 0x40, 0x28, 0x97, 0x00, 0xbf,
  0x5d, 0x66, 0xeb, 0xc0, 0x22, 0x3e, 0x31, 0xc1, 0x73, 0x4e, 0x25, 0x40,
  0x89, 0x62, 0xa8, 0x40, 0x9f, 0x42, 0x2c, 0xc1, 0x91, 0x60, 0xed, 0xbf,
  0x7b, 0xd4, 0x2f, 0x40, 0xb6, 0x38, 0x6b, 0x40, 0x44, 0x8d, 0x71, 0xc0,
  0x26, 0xc8, 0xc9, 0x3f, 0xb2, 0xd5, 0x21, 0xbd, 0x4b, 0xb7, 0x15, 0x41,
  0x62, 0xf6, 0xc1, 0xc0, 0xe4, 0xba, 0x0f, 0xbf, 0xe9, 0xfc, 0x01, 0xc1,
  0x69, 0x37, 0x19, 0xc0, 0x45, 0x39, 0x43, 0xc0, 0xfa, 0x0b, 0x90, 0xbf,
  0x6a, 0x25, 0x0b, 0xbf, 0xe0, 0xab, 0x08, 0xc0, 0xf5, 0xfa, 0xb1, 0xbf,
  0x2e, 0xdd, 0x01, 0x3f, 0x29, 0x4b, 0xf9, 0x3e, 0x6f, 0xe1, 0x50, 0xbf,
  0x14, 0x6d, 0xb8, 0x40, 0x7e, 0x26, 0x8b, 0x3f, 0xab, 0xee, 0x37, 0xbf,
  0x29, 0x91, 0xe6, 0xbf, 0x2a, 0x1e, 0x8f, 0x40, 0x0b, 0xa4, 0x42, 0x3f,
  0x78, 0xa0, 0xb4, 0x3f, 0x20, 0x4a, 0x43, 0xc0, 0xa2, 0xe5, 0xb6, 0x40,
  0xd0, 0x4a, 0x33, 0xc0, 0x81, 0x27, 0x09, 0xbf, 0xc2, 0x89, 0xe8, 0xbf,
  0x8e, 0x6c, 0x28, 0xc0, 0xf4, 0x63, 0xb2, 0x3f, 0xf8, 0xb8, 0x73, 0xc0,
  0x04, 0xe7, 0x7a, 0x40, 0x92, 0x95, 0x3e, 0xbf, 0x1f, 0xcb, 0x5f, 0xc0,
  0x89, 0x32, 0x9a, 0xc0, 0x2c, 0x8f, 0xe9, 0xbf, 0xa1, 0xc5, 0x93, 0xbe,
  0x23, 0x91, 0x30, 0xc0, 0xf9, 0x70, 0x70, 0xbf, 0x71, 0x0f, 0xa1, 0x3f,
  0xc1, 0xed, 0x3d, 0xc0, 0x95, 0x1a, 0xfb, 0xc0, 0xc9, 0x03, 0xbd, 0x3e,
  0xce, 0xfb, 0xe4, 0x3f, 0xb5, 0x4c, 0xac, 0xbf, 0x0e, 0xc2, 0xea, 0x3f,
  0x3b, 0x89, 0x9f, 0xbf, 0x5f, 0x3d, 0x86, 0xc0, 0x16, 0xea, 0xe6, 0x3d,
  0x80, 0xa8, 0x4b, 0xc0, 0xc5, 0x7e, 0xee, 0xbd, 0xb4, 0x6b, 0x7d, 0x3f,
  0xd1, 0x65, 0x96, 0x3f, 0x05, 0x46, 0xf7, 0xbf, 0x68, 0x42, 0xb5, 0xbe,
  0xfc, 0x37, 0x8d, 0xc0, 0x20, 0x9e, 0x9c, 0x3f, 0x20, 0x2a, 0x42, 0xbf,
  0x6f, 0x8a, 0xfe, 0x40, 0x11, 0x11, 0x74, 0x3f, 0x31, 0xcf, 0x28, 0x40,
  0xec, 0xba, 0x8d, 0x40, 0xf8, 0xb9, 0x7f, 0x3d, 0xdc, 0xdf, 0xd8, 0xbf,
  0x0f, 0xd7, 0x46, 0xbf, 0x32, 0xd8, 0xfa, 0xbf, 0xb3, 0xe1, 0xb2, 0x3f,
  0x62, 0x29, 0x25, 0x40, 0x05, 0x50, 0x2f, 0xbf, 0x3f, 0x55, 0xdb, 0x3f,
  0x75, 0xfe, 0x14, 0xbe, 0x00, 0x0c, 0x67, 0x40, 0x10, 0xcd, 0x38, 0x3f,
  0xab, 0x87, 0x56, 0xbf, 0x9d, 0x66, 0xd9, 0xc0, 0x92, 0xae, 0xd0, 0x3e,
  0xcb, 0xe1, 0x40, 0x3d, 0x14, 0x1c, 0x9c, 0x3f, 0xec, 0x81, 0x82, 0xbe,
  0x24, 0x4a, 0xa7, 0x3f, 0xdc, 0xc7, 0x14, 0x3e, 0x4f, 0x55, 0xf9, 0x3d,
  0x52, 0xde, 0x01, 0xc0, 0x00, 0x65, 0x0e, 0x3d, 0x53, 0x2a, 0xfa, 0x3d,
  0xf1, 0x9f, 0xf5, 0x3e, 0x5d, 0xfb, 0x0c, 0x3e, 0x65, 0x61, 0xdf, 0xbe,
  0x30, 0x77, 0xa1, 0xbe, 0x93, 0x3d, 0xf0, 0x3e, 0x2a, 0x8e, 0x4b, 0xbf,
  0xa3, 0x9e, 0x1b, 0xbf, 0x6e, 0x2a, 0x97, 0xbd, 0x89, 0x46, 0x13, 0xbe,
  0x86, 0xdd, 0x1b, 0xbf, 0x2c, 0xc3, 0x4c, 0xbf, 0xe8, 0x24, 0x43, 0xbf,
  0xfc, 0x3a, 0x08, 0x3d, 0x47, 0xb4, 0x66, 0x3c, 0xcb, 0x4b, 0xe3, 0xbf,
  0xac, 0x6b, 0x17, 0x3f, 0x1e, 0x90, 0x66, 0xbe, 0xfa, 0x9a, 0xa1, 0xbe,
  0x67, 0x8b, 0x53, 0x40, 0x6f, 0x0c, 0x25, 0x3f, 0x89, 0x04, 0x62, 0x3f,
  0x83, 0xbf, 0x32, 0xc0, 0xdb, 0x00, 0xbf, 0x3a, 0x12, 0xd6, 0xb5, 0xbe,
  0x4c, 0x1b, 0x75, 0x3f, 0x85, 0xc9, 0xc7, 0x3e, 0xb7, 0xb3, 0x53, 0xbf,
  0x19, 0x90, 0x91, 0xbf, 0x6d, 0x50, 0x1c, 0xbe, 0x64, 0xcf, 0x15, 0xc0,
  0xc7, 0x75, 0x7a, 0x3f, 0x37, 0x5b, 0x5f, 0x3e, 0x82, 0xb9, 0xd6, 0xbe,
  0xe2, 0x0c, 0x16, 0x3f, 0x69, 0x1d, 0x1f, 0x3f, 0xed, 0x81, 0x2a, 0xbf,
  0xeb, 0x0a, 0x9b, 0x3f, 0xfb, 0xfc, 0x0a, 0x3f, 0xb8, 0xac, 0xa3, 0xbf,
  0xb9, 0xcf, 0xd7, 0xbe, 0x14, 0x37, 0x50, 0xbf, 0xf1, 0x40, 0x9b, 0xbe,
  0xf6, 0xd1, 0x1f, 0xbf, 0xb2, 0x02, 0x71, 0x3f, 0xab, 0xab, 0x06, 0xbe,
  0xe1, 0xb0, 0xaa, 0x3e, 0x52, 0xab, 0x10, 0x3f, 0x3d, 0xb7, 0x07, 0xbf,
  0xee, 0xc5, 0x94, 0x3d, 0x25, 0xe3, 0x16, 0x3f, 0x11, 0x70, 0x65, 0x3d,
  0xaf, 0x02, 0x13, 0xbd, 0x1d, 0x4b, 0x1f, 0x3f, 0x9e, 0x98, 0xa1, 0x3e,
  0xd0, 0xae, 0x12, 0x3e, 0x3e, 0x45, 0xac, 0x3e, 0x68, 0x0e, 0x70, 0xbe,
  0x95, 0x66, 0x18, 0x3f, 0xe0, 0x6c, 0xe1, 0xbe, 0xc2, 0x1d, 0x10, 0x3f,
  0xc8, 0x99, 0x15, 0x3e, 0xba, 0xb9, 0x22, 0x3e, 0x21, 0x8e, 0x2d, 0xbe,
  0xd0, 0xd7, 0x65, 0x40, 0xba, 0xd1, 0x16, 0xbf, 0x15, 0x89, 0xc2, 0xbf,
  0x00, 0x00, 0x8b, 0xbf, 0x12, 0x89, 0x2b, 0xbe, 0xd0, 0xd5, 0x48, 0x3f,
  0x0a, 0xf6, 0x06, 0x40, 0x01, 0x8b, 0xb8, 0x40, 0x07, 0xb5, 0x89, 0xc0,
  0x24, 0x04, 0x64, 0x3f, 0xad, 0x9b, 0x16, 0xbf, 0xd0, 0xee, 0x06, 0x40,
  0x1b, 0xd7, 0x4d, 0x40, 0x87, 0xd9, 0x28, 0xc1, 0x34, 0xc8, 0xfb, 0xbe,
  0x32, 0x7b, 0x05, 0xc0, 0x92, 0xe2, 0x1e, 0x40, 0x2d, 0xbc, 0xaa, 0xbe,
  0x76, 0x78, 0x44, 0xc0, 0xc5, 0xed, 0xd2, 0x3f, 0x54, 0x1d, 0x90, 0x3f,
  0xab, 0x34, 0x0d, 0x40, 0xc3, 0x4f, 0x11, 0xc0, 0x2b, 0x2e, 0xa4, 0xbe,
  0x4e, 0x10, 0x2d, 0xbf, 0x44, 0xfd, 0x85, 0xbf, 0x37, 0x21, 0x76, 0x3c,
  0x09, 0x51, 0x31, 0x3f, 0x5d, 0x34, 0x86, 0xbf, 0x73, 0x3b, 0x89, 0x3f,
  0x78, 0xf4, 0x12, 0xbf, 0x38, 0xf3, 0x97, 0x3f, 0x58, 0x83, 0xab, 0x3e,
  0x23, 0xbd, 0x3b, 0xbf, 0x92, 0xaa, 0x96, 0x3f, 0xd0, 0x98, 0x02, 0xbe,
  0x72, 0xfc, 0xc7, 0xbd, 0x8d, 0xdb, 0xbe, 0x3f, 0x68, 0x2b, 0x7f, 0xbe,
  0x0c, 0xa3, 0x6b, 0xbe, 0x15, 0xf1, 0xc4, 0xbf, 0xef, 0xb2, 0xe4, 0x3f,
  0xab, 0x39, 0x67, 0x3f, 0x47, 0x9d, 0x05, 0xbf, 0xf0, 0x69, 0xb6, 0x3c,
  0xee, 0x9d, 0x87, 0x3f, 0x51, 0x60, 0x48, 0x3f, 0x33, 0x94, 0xb2, 0x3f,
  0x00, 0x00, 0x06, 0x00, 0x08, 0x00, 0x04, 0x00, 0x06, 0x00, 0x00, 0x00,
  0x04, 0x00, 0x00, 0x00, 0x30, 0x00, 0x00, 0x00, 0x58, 0xd1, 0x34, 0x40,
  0x72, 0x15, 0xea, 0xbf, 0xec, 0xf4, 0xc4, 0xc0, 0xb2, 0x83, 0x02, 0x40,
  0xe6, 0xec, 0x58, 0x40, 0x64, 0xd7, 0xa7, 0x41, 0x3f, 0x33, 0x5a, 0xc1,
  0x1a, 0x8a, 0x95, 0x40, 0x78, 0xa7, 0x31, 0x40, 0x48, 0x03, 0xc8, 0xbf,
  0xcb, 0x6f, 0x43, 0x40, 0xa0, 0x6a, 0x4a, 0xc0, 0x64, 0xf9, 0xff, 0xff,
  0x68, 0xf9, 0xff, 0xff, 0x0f, 0x00, 0x00, 0x00, 0x4d, 0x4c, 0x49, 0x52,
  0x20, 0x43, 0x6f, 0x6e, 0x76, 0x65, 0x72, 0x74, 0x65, 0x64, 0x2e, 0x00,
  0x01, 0x00, 0x00, 0x00, 0x14, 0x00, 0x00, 0x00, 0x00, 0x00, 0x0e, 0x00,
  0x18, 0x00, 0x14, 0x00, 0x10, 0x00, 0x0c, 0x00, 0x08, 0x00, 0x04, 0x00,
  0x0e, 0x00, 0x00, 0x00, 0x14, 0x00, 0x00, 0x00, 0x1c, 0x00, 0x00, 0x00,
  0x1c, 0x01, 0x00, 0x00, 0x20, 0x01, 0x00, 0x00, 0x24, 0x01, 0x00, 0x00,
  0x04, 0x00, 0x00, 0x00, 0x6d, 0x61, 0x69, 0x6e, 0x00, 0x00, 0x00, 0x00,
  0x05, 0x00, 0x00, 0x00, 0xd0, 0x00, 0x00, 0x00, 0x9c, 0x00, 0x00, 0x00,
  0x5c, 0x00, 0x00, 0x00, 0x38, 0x00, 0x00, 0x00, 0x04, 0x00, 0x00, 0x00,
  0x52, 0xff, 0xff, 0xff, 0x10, 0x00, 0x00, 0x00, 0x00, 0x00, 0x00, 0x08,
  0x0c, 0x00, 0x00, 0x00, 0x10, 0x00, 0x00, 0x00, 0xe8, 0xf9, 0xff, 0xff,
  0x01, 0x00, 0x00, 0x00, 0x0b, 0x00, 0x00, 0x00, 0x03, 0x00, 0x00, 0x00,
  0x0a, 0x00, 0x00, 0x00, 0x03, 0x00, 0x00, 0x00, 0x04, 0x00, 0x00, 0x00,
  0xae, 0xff, 0xff, 0xff, 0x0c, 0x00, 0x00, 0x00, 0x10, 0x00, 0x00, 0x00,
  0x01, 0x00, 0x00, 0x00, 0x01, 0x00, 0x00, 0x00, 0x0a, 0x00, 0x00, 0x00,
  0x01, 0x00, 0x00, 0x00, 0x09, 0x00, 0x00, 0x00, 0xa2, 0xff, 0xff, 0xff,
  0x10, 0x00, 0x00, 0x00, 0x00, 0x00, 0x00, 0x08, 0x0c, 0x00, 0x00, 0x00,
  0x10, 0x00, 0x00, 0x00, 0x38, 0xfa, 0xff, 0xff, 0x01, 0x00, 0x00, 0x00,
  0x09, 0x00, 0x00, 0x00, 0x03, 0x00, 0x00, 0x00, 0x08, 0x00, 0x00, 0x00,
  0x02, 0x00, 0x00, 0x00, 0x01, 0x00, 0x00, 0x00, 0x00, 0x00, 0x0a, 0x00,
  0x10, 0x00, 0x0c, 0x00, 0x08, 0x00, 0x04, 0x00, 0x0a, 0x00, 0x00, 0x00,
  0x0c, 0x00, 0x00, 0x00, 0x10, 0x00, 0x00, 0x00, 0x01, 0x00, 0x00, 0x00,
  0x01, 0x00, 0x00, 0x00, 0x08, 0x00, 0x00, 0x00, 0x01, 0x00, 0x00, 0x00,
  0x07, 0x00, 0x00, 0x00, 0x00, 0x00, 0x0e, 0x00, 0x14, 0x00, 0x00, 0x00,
  0x10, 0x00, 0x0c, 0x00, 0x0b, 0x00, 0x04, 0x00, 0x0e, 0x00, 0x00, 0x00,
  0x10, 0x00, 0x00, 0x00, 0x00, 0x00, 0x00, 0x08, 0x0c, 0x00, 0x00, 0x00,
  0x10, 0x00, 0x00, 0x00, 0xa4, 0xfa, 0xff, 0xff, 0x01, 0x00, 0x00, 0x00,
  0x07, 0x00, 0x00, 0x00, 0x03, 0x00, 0x00, 0x00, 0x00, 0x00, 0x00, 0x00,
  0x05, 0x00, 0x00, 0x00, 0x06, 0x00, 0x00, 0x00, 0x01, 0x00, 0x00, 0x00,
  0x0b, 0x00, 0x00, 0x00, 0x01, 0x00, 0x00, 0x00, 0x00, 0x00, 0x00, 0x00,
  0x0c, 0x00, 0x00, 0x00, 0x04, 0x05, 0x00, 0x00, 0xb0, 0x04, 0x00, 0x00,
  0x58, 0x04, 0x00, 0x00, 0x18, 0x04, 0x00, 0x00, 0xdc, 0x03, 0x00, 0x00,
  0x74, 0x03, 0x00, 0x00, 0x10, 0x03, 0x00, 0x00, 0x20, 0x02, 0x00, 0x00,
  0xb8, 0x01, 0x00, 0x00, 0xc8, 0x00, 0x00, 0x00, 0x60, 0x00, 0x00, 0x00,
  0x04, 0x00, 0x00, 0x00, 0x42, 0xfb, 0xff, 0xff, 0x00, 0x00, 0x00, 0x01,
  0x14, 0x00, 0x00, 0x00, 0x1c, 0x00, 0x00, 0x00, 0x1c, 0x00, 0x00, 0x00,
  0x0c, 0x00, 0x00, 0x00, 0x34, 0x00, 0x00, 0x00, 0x02, 0x00, 0x00, 0x00,
  0xff, 0xff, 0xff, 0xff, 0x01, 0x00, 0x00, 0x00, 0x2c, 0xfb, 0xff, 0xff,
  0x1b, 0x00, 0x00, 0x00, 0x53, 0x74, 0x61, 0x74, 0x65, 0x66, 0x75, 0x6c,
  0x50, 0x61, 0x72, 0x74, 0x69, 0x74, 0x69, 0x6f, 0x6e, 0x65, 0x64, 0x43,
  0x61, 0x6c, 0x6c, 0x5f, 0x31, 0x3a, 0x30, 0x00, 0x02, 0x00, 0x00, 0x00,
  0x01, 0x00, 0x00, 0x00, 0x01, 0x00, 0x00, 0x00, 0x9a, 0xfb, 0xff, 0xff,
  0x00, 0x00, 0x00, 0x01, 0x14, 0x00, 0x00, 0x00, 0x1c, 0x00, 0x00, 0x00,
  0x1c, 0x00, 0x00, 0x00, 0x0b, 0x00, 0x00, 0x00, 0x40, 0x00, 0x00, 0x00,
  0x02, 0x00, 0x00, 0x00, 0xff, 0xff, 0xff, 0xff, 0x0c, 0x00, 0x00, 0x00,
  0x84, 0xfb, 0xff, 0xff, 0x25, 0x00, 0x00, 0x00, 0x73, 0x65, 0x71, 0x75,
  0x65, 0x6e, 0x74, 0x69, 0x61, 0x6c, 0x5f, 0x31, 0x5f, 0x31, 0x2f, 0x61,
  0x63, 0x74, 0x69, 0x76, 0x61, 0x74, 0x69, 0x6f, 0x6e, 0x5f, 0x33, 0x5f,
  0x31, 0x2f, 0x53, 0x69, 0x67, 0x6d, 0x6f, 0x69, 0x64, 0x00, 0x00, 0x00,
  0x02, 0x00, 0x00, 0x00, 0x01, 0x00, 0x00, 0x00, 0x0c, 0x00, 0x00, 0x00,
  0xfe, 0xfb, 0xff, 0xff, 0x00, 0x00, 0x00, 0x01, 0x14, 0x00, 0x00, 0x00,
  0x1c, 0x00, 0x00, 0x00, 0x1c, 0x00, 0x00, 0x00, 0x0a, 0x00, 0x00, 0x00,
  0xc8, 0x00, 0x00, 0x00, 0x02, 0x00, 0x00, 0x00, 0xff, 0xff, 0xff, 0xff,
  0x0c, 0x00, 0x00, 0x00, 0xe8, 0xfb, 0xff, 0xff, 0xae, 0x00, 0x00, 0x00,
  0x73, 0x65, 0x71, 0x75, 0x65, 0x6e, 0x74, 0x69, 0x61, 0x6c, 0x5f, 0x31,
  0x5f, 0x31, 0x2f, 0x64, 0x65, 0x6e, 0x73, 0x65, 0x5f, 0x34, 0x5f, 0x31,
  0x2f, 0x4d, 0x61, 0x74, 0x4d, 0x75, 0x6c, 0x3b, 0x73, 0x65, 0x71, 0x75,
  0x65, 0x6e, 0x74, 0x69, 0x61, 0x6c, 0x5f, 0x31, 0x5f, 0x31, 0x2f, 0x64,
  0x65, 0x6e, 0x73, 0x65, 0x5f, 0x34, 0x5f, 0x31, 0x2f, 0x42, 0x69, 0x61,
  0x73, 0x41, 0x64, 0x64, 0x3b, 0x73, 0x65, 0x71, 0x75, 0x65, 0x6e, 0x74,
  0x69, 0x61, 0x6c, 0x5f, 0x31, 0x5f, 0x31, 0x2f, 0x62, 0x61, 0x74, 0x63,
  0x68, 0x5f, 0x6e, 0x6f, 0x72, 0x6d, 0x61, 0x6c, 0x69, 0x7a, 0x61, 0x74,
  0x69, 0x6f, 0x6e, 0x5f, 0x33, 0x5f, 0x31, 0x2f, 0x62, 0x61, 0x74, 0x63,
  0x68, 0x6e, 0x6f, 0x72, 0x6d, 0x2f, 0x6d, 0x75, 0x6c, 0x5f, 0x31, 0x3b,
  0x73, 0x65, 0x71, 0x75, 0x65, 0x6e, 0x74, 0x69, 0x61, 0x6c, 0x5f, 0x31,
  0x5f, 0x31, 0x2f, 0x62, 0x61, 0x74, 0x63, 0x68, 0x5f, 0x6e, 0x6f, 0x72,
  0x6d, 0x61, 0x6c, 0x69, 0x7a, 0x61, 0x74, 0x69, 0x6f, 0x6e, 0x5f, 0x33,
  0x5f, 0x31, 0x2f, 0x62, 0x61, 0x74, 0x63, 0x68, 0x6e, 0x6f, 0x72, 0x6d,
  0x2f, 0x61, 0x64, 0x64, 0x5f, 0x31, 0x00, 0x00, 0x02, 0x00, 0x00, 0x00,
  0x01, 0x00, 0x00, 0x00, 0x0c, 0x00, 0x00, 0x00, 0xea, 0xfc, 0xff, 0xff,
  0x00, 0x00, 0x00, 0x01, 0x14, 0x00, 0x00, 0x00, 0x1c, 0x00, 0x00, 0x00,
  0x1c, 0x00, 0x00, 0x00, 0x09, 0x00, 0x00, 0x00, 0x40, 0x00, 0x00, 0x00,
  0x02, 0x00, 0x00, 0x00, 0xff, 0xff, 0xff, 0xff, 0x18, 0x00, 0x00, 0x00,
  0xd4, 0xfc, 0xff, 0xff, 0x25, 0x00, 0x00, 0x00, 0x73, 0x65, 0x71, 0x75,
  0x65, 0x6e, 0x74, 0x69, 0x61, 0x6c, 0x5f, 0x31, 0x5f, 0x31, 0x2f, 0x61,
  0x63, 0x74, 0x69, 0x76, 0x61, 0x74, 0x69, 0x6f, 0x6e, 0x5f, 0x32, 0x5f,
  0x31, 0x2f, 0x53, 0x69, 0x67, 0x6d, 0x6f, 0x69, 0x64, 0x00, 0x00, 0x00,
  0x02, 0x00, 0x00, 0x00, 0x01, 0x00, 0x00, 0x00, 0x18, 0x00, 0x00, 0x00,
  0x4e, 0xfd, 0xff, 0xff, 0x00, 0x00, 0x00, 0x01, 0x14, 0x00, 0x00, 0x00,
  0x1c, 0x00, 0x00, 0x00, 0x1c, 0x00, 0x00, 0x00, 0x08, 0x00, 0x00, 0x00,
  0xc8, 0x00, 0x00, 0x00, 0x02, 0x00, 0x00, 0x00, 0xff, 0xff, 0xff, 0xff,
  0x18, 0x00, 0x00, 0x00, 0x38, 0xfd, 0xff, 0xff, 0xae, 0x00, 0x00, 0x00,
  0x73, 0x65, 0x71, 0x75, 0x65, 0x6e, 0x74, 0x69, 0x61, 0x6c, 0x5f, 0x31,
  0x5f, 0x31, 0x2f, 0x64, 0x65, 0x6e, 0x73, 0x65, 0x5f, 0x33, 0x5f, 0x31,
  0x2f, 0x4d, 0x61, 0x74, 0x4d, 0x75, 0x6c, 0x3b, 0x73, 0x65, 0x71, 0x75,
  0x65, 0x6e, 0x74, 0x69, 0x61, 0x6c, 0x5f, 0x31, 0x5f, 0x31, 0x2f, 0x64,
  0x65, 0x6e, 0x73, 0x65, 0x5f, 0x33, 0x5f, 0x31, 0x2f, 0x42, 0x69, 0x61,
  0x73, 0x41, 0x64, 0x64, 0x3b, 0x73, 0x65, 0x71, 0x75, 0x65, 0x6e, 0x74,
  0x69, 0x61, 0x6c, 0x5f, 0x31, 0x5f, 0x31, 0x2f, 0x62, 0x61, 0x74, 0x63,
  0x68, 0x5f, 0x6e, 0x6f, 0x72, 0x6d, 0x61, 0x6c, 0x69, 0x7a, 0x61, 0x74,
  0x69, 0x6f, 0x6e, 0x5f, 0x32, 0x5f, 0x31, 0x2f, 0x62, 0x61, 0x74, 0x63,
  0x68, 0x6e, 0x6f, 0x72, 0x6d, 0x2f, 0x6d, 0x75, 0x6c, 0x5f, 0x31, 0x3b,
  0x73, 0x65, 0x71, 0x75, 0x65, 0x6e, 0x74, 0x69, 0x61, 0x6c, 0x5f, 0x31,
  0x5f, 0x31, 0x2f, 0x62, 0x61, 0x74, 0x63, 0x68, 0x5f, 0x6e, 0x6f, 0x72,
  0x6d, 0x61, 0x6c, 0x69, 0x7a, 0x61, 0x74, 0x69, 0x6f, 0x6e, 0x5f, 0x32,
  0x5f, 0x31, 0x2f, 0x62, 0x61, 0x74, 0x63, 0x68, 0x6e, 0x6f, 0x72, 0x6d,
  0x2f, 0x61, 0x64, 0x64, 0x5f, 0x31, 0x00, 0x00, 0x02, 0x00, 0x00, 0x00,
  0x01, 0x00, 0x00, 0x00, 0x18, 0x00, 0x00, 0x00, 0x8a, 0xfe, 0xff, 0xff,
  0x00, 0x00, 0x00, 0x01, 0x10, 0x00, 0x00, 0x00, 0x10, 0x00, 0x00, 0x00,
  0x07, 0x00, 0x00, 0x00, 0x44, 0x00, 0x00, 0x00, 0x14, 0xfe, 0xff, 0xff,
  0x36, 0x00, 0x00, 0x00, 0x73, 0x65, 0x71, 0x75, 0x65, 0x6e, 0x74, 0x69,
  0x61, 0x6c, 0x5f, 0x31, 0x5f, 0x31, 0x2f, 0x62, 0x61, 0x74, 0x63, 0x68,
  0x5f, 0x6e, 0x6f, 0x72, 0x6d, 0x61, 0x6c, 0x69, 0x7a, 0x61, 0x74, 0x69,
  0x6f, 0x6e, 0x5f, 0x32, 0x5f, 0x31, 0x2f, 0x62, 0x61, 0x74, 0x63, 0x68,
  0x6e, 0x6f, 0x72, 0x6d, 0x2f, 0x61, 0x64, 0x64, 0x5f, 0x31, 0x00, 0x00,
  0x01, 0x00, 0x00, 0x00, 0x18, 0x00, 0x00, 0x00, 0xea, 0xfe, 0xff, 0xff,
  0x00, 0x00, 0x00, 0x01, 0x10, 0x00, 0x00, 0x00, 0x10, 0x00, 0x00, 0x00,
  0x06, 0x00, 0x00, 0x00, 0x44, 0x00, 0x00, 0x00, 0x74, 0xfe, 0xff, 0xff,
  0x36, 0x00, 0x00, 0x00, 0x73, 0x65, 0x71, 0x75, 0x65, 0x6e, 0x74, 0x69,
  0x61, 0x6c, 0x5f, 0x31, 0x5f, 0x31, 0x2f, 0x62, 0x61, 0x74, 0x63, 0x68,
  0x5f, 0x6e, 0x6f, 0x72, 0x6d, 0x61, 0x6c, 0x69, 0x7a, 0x61, 0x74, 0x69,
  0x6f, 0x6e, 0x5f, 0x32, 0x5f, 0x31, 0x2f, 0x62, 0x61, 0x74, 0x63, 0x68,
  0x6e, 0x6f, 0x72, 0x6d, 0x2f, 0x6d, 0x75, 0x6c, 0x5f, 0x31, 0x00, 0x00,
  0x02, 0x00, 0x00, 0x00, 0x18, 0x00, 0x00, 0x00, 0x06, 0x00, 0x00, 0x00,
  0x4e, 0xff, 0xff, 0xff, 0x00, 0x00, 0x00, 0x01, 0x10, 0x00, 0x00, 0x00,
  0x10, 0x00, 0x00, 0x00, 0x05, 0x00, 0x00, 0x00, 0x1c, 0x00, 0x00, 0x00,
  0xd8, 0xfe, 0xff, 0xff, 0x0f, 0x00, 0x00, 0x00, 0x61, 0x72, 0x69, 0x74,
  0x68, 0x2e, 0x63, 0x6f, 0x6e, 0x73, 0x74, 0x61, 0x6e, 0x74, 0x33, 0x00,
  0x01, 0x00, 0x00, 0x00, 0x01, 0x00, 0x00, 0x00, 0x86, 0xff, 0xff, 0xff,
  0x00, 0x00, 0x00, 0x01, 0x10, 0x00, 0x00, 0x00, 0x10, 0x00, 0x00, 0x00,
  0x04, 0x00, 0x00, 0x00, 0x1c, 0x00, 0x00, 0x00, 0x10, 0xff, 0xff, 0xff,
  0x0f, 0x00, 0x00, 0x00, 0x61, 0x72, 0x69, 0x74, 0x68, 0x2e, 0x63, 0x6f,
  0x6e, 0x73, 0x74, 0x61, 0x6e, 0x74, 0x32, 0x00, 0x02, 0x00, 0x00, 0x00,
  0x01, 0x00, 0x00, 0x00, 0x0c, 0x00, 0x00, 0x00, 0xc2, 0xff, 0xff, 0xff,
  0x00, 0x00, 0x00, 0x01, 0x10, 0x00, 0x00, 0x00, 0x10, 0x00, 0x00, 0x00,
  0x03, 0x00, 0x00, 0x00, 0x1c, 0x00, 0x00, 0x00, 0x4c, 0xff, 0xff, 0xff,
  0x0f, 0x00, 0x00, 0x00, 0x61, 0x72, 0x69, 0x74, 0x68, 0x2e, 0x63, 0x6f,
  0x6e, 0x73, 0x74, 0x61, 0x6e, 0x74, 0x31, 0x00, 0x02, 0x00, 0x00, 0x00,
  0x0c, 0x00, 0x00, 0x00, 0x18, 0x00, 0x00, 0x00, 0x00, 0x00, 0x16, 0x00,
  0x18, 0x00, 0x14, 0x00, 0x00, 0x00, 0x10, 0x00, 0x0c, 0x00, 0x08, 0x00,
  0x00, 0x00, 0x00, 0x00, 0x00, 0x00, 0x07, 0x00, 0x16, 0x00, 0x00, 0x00,
  0x00, 0x00, 0x00, 0x01, 0x10, 0x00, 0x00, 0x00, 0x10, 0x00, 0x00, 0x00,
  0x02, 0x00, 0x00, 0x00, 0x1c, 0x00, 0x00, 0x00, 0xa0, 0xff, 0xff, 0xff,
  0x0e, 0x00, 0x00, 0x00, 0x61, 0x72, 0x69, 0x74, 0x68, 0x2e, 0x63, 0x6f,
  0x6e, 0x73, 0x74, 0x61, 0x6e, 0x74, 0x00, 0x00, 0x01, 0x00, 0x00, 0x00,
  0x0c, 0x00, 0x00, 0x00, 0x00, 0x00, 0x16, 0x00, 0x1c, 0x00, 0x18, 0x00,
  0x00, 0x00, 0x14, 0x00, 0x10, 0x00, 0x0c, 0x00, 0x00, 0x00, 0x00, 0x00,
  0x08, 0x00, 0x07, 0x00, 0x16, 0x00, 0x00, 0x00, 0x00, 0x00, 0x00, 0x01,
  0x14, 0x00, 0x00, 0x00, 0x20, 0x00, 0x00, 0x00, 0x20, 0x00, 0x00, 0x00,
  0x01, 0x00, 0x00, 0x00, 0x3c, 0x00, 0x00, 0x00, 0x02, 0x00, 0x00, 0x00,
  0xff, 0xff, 0xff, 0xff, 0x06, 0x00, 0x00, 0x00, 0x04, 0x00, 0x04, 0x00,
  0x04, 0x00, 0x00, 0x00, 0x1f, 0x00, 0x00, 0x00, 0x73, 0x65, 0x72, 0x76,
  0x69, 0x6e, 0x67, 0x5f, 0x64, 0x65, 0x66, 0x61, 0x75, 0x6c, 0x74, 0x5f,
  0x69, 0x6e, 0x70, 0x75, 0x74, 0x5f, 0x6c, 0x61, 0x79, 0x65, 0x72, 0x5f,
  0x31, 0x3a, 0x30, 0x00, 0x02, 0x00, 0x00, 0x00, 0x01, 0x00, 0x00, 0x00,
  0x06, 0x00, 0x00, 0x00, 0x02, 0x00, 0x00, 0x00, 0x20, 0x00, 0x00, 0x00,
  0x04, 0x00, 0x00, 0x00, 0xf4, 0xff, 0xff, 0xff, 0x0e, 0x00, 0x00, 0x00,
  0x00, 0x00, 0x00, 0x0e, 0x0c, 0x00, 0x0c, 0x00, 0x0b, 0x00, 0x00, 0x00,
  0x00, 0x00, 0x04, 0x00, 0x0c, 0x00, 0x00, 0x00, 0x09, 0x00, 0x00, 0x00,
  0x00, 0x00, 0x00, 0x09
};
unsigned int slip_ratio_model_tflite_len = 4288;
