/**
  ******************************************************************************
  * @file    tire_slip_network_data_params.c
  * @author  AST Embedded Analytics Research Platform
  * @date    2026-01-15T14:13:54-0700
  * @brief   AI Tool Automatic Code Generator for Embedded NN computing
  ******************************************************************************
  * Copyright (c) 2026 STMicroelectronics.
  * All rights reserved.
  *
  * This software is licensed under terms that can be found in the LICENSE file
  * in the root directory of this software component.
  * If no LICENSE file comes with this software, it is provided AS-IS.
  ******************************************************************************
  */

#include "tire_slip_network_data_params.h"


/**  Activations Section  ****************************************************/
ai_handle g_tire_slip_network_activations_table[1 + 2] = {
  AI_HANDLE_PTR(AI_MAGIC_MARKER),
  AI_HANDLE_PTR(NULL),
  AI_HANDLE_PTR(AI_MAGIC_MARKER),
};




/**  Weights Section  ********************************************************/
AI_ALIGNED(32)
const ai_u64 s_tire_slip_network_weights_array_u64[241] = {
  0x3d196287bf31b9f3U, 0xbd22f79e3ee3ac8eU, 0xbe3471e73eedb949U, 0x4007477fbfaad810U,
  0x3e3dbcb0bc579233U, 0x3c12a5433dee3600U, 0x406ebc2cc009c6efU, 0xbf679f05be093c44U,
  0xbc0abfec3cccb22dU, 0xbe774b12be975fdcU, 0xbd8f2766be619fc8U, 0xbe0807bdbe289db3U,
  0xc02c975b3feb25aeU, 0xbecdc4c5be86d38dU, 0xbcb1f39bbf441577U, 0xbce0c49cbf686f47U,
  0x3eba1f99be6e30cfU, 0xbf00bd2ebd9ba6eeU, 0xc08871a53fa54491U, 0x3f185917bdac903bU,
  0x3c2bc85c3debd54fU, 0x4022d6f4c00acddbU, 0xbf23afa7bea2073eU, 0xbcb74538bd6106d5U,
  0xbf7378a23e01e747U, 0xbd9891dcbe358657U, 0xbc0740a83d7f1920U, 0x3e85f0e1be97b3d8U,
  0x3e9447a33f9bad8dU, 0xbbfeda16c0113fe2U, 0xbe63ebcbbec43ecdU, 0xbf3819533de1a4faU,
  0x3d778e55bc155b2cU, 0xbe0c46a6bea865f3U, 0xbe4ba8e93cc016d9U, 0x3c92ca44be51c808U,
  0x4029d1f7c079bcd0U, 0x3d9904cbbdd05fefU, 0x3d14673abcb476fdU, 0xbe6edeae3e40761bU,
  0x3dae7d0d3edb6ef2U, 0x3bcdc62a3b069f94U, 0x3ea2f9d7bee892a1U, 0x3f34ecc3bda69bf2U,
  0xbd65be68bdb91eacU, 0xbfb8ec093f45d442U, 0x3f33429bbe987492U, 0x3d71c1c8bf0342b6U,
  0x3f401fe33f2cce70U, 0xbef2021a3d40e383U, 0xbe71fef83d3fa9abU, 0x3fe879b0bfbdf1adU,
  0x3e55f63abf36ee94U, 0x3d6cd21dbe6de369U, 0x3f1e2d7cc0216bf9U, 0x3f3eaba93cc33a02U,
  0x3ca522693d8ed188U, 0xc047e2ba40050ba9U, 0xbf06f1c53e87556aU, 0xbca0b4ae3e4880d7U,
  0x3f7dc2d1bf189c12U, 0xbf179763bf3d9804U, 0xbc9d398ebfa4f305U, 0x3f9984dcbf6a4092U,
  0xbd8a35043ec4a904U, 0xbbdd5418bef13842U, 0xbe81c888bf1c0acbU, 0x3e8a4b4d3dd0bfeaU,
  0xbe84a8efbdb4b5d5U, 0xbf0138c53eb16e5bU, 0x3f0d995a3dfa008cU, 0x3cd94fbbbdfe7225U,
  0x3fc3f3f0bfd5de70U, 0xbf4588adbf677bf8U, 0x3fd029cec0032999U, 0xbee8156cc037d129U,
  0xc062ad8cbfed3616U, 0xbfb4f06fbf70cb9eU, 0x3f8c0fe6c0605130U, 0x3eb6cf50bfa0a8c3U,
  0x3f0982eebf731e50U, 0xc00def803f21219fU, 0xbe0f9fa93fb09a01U, 0xbebc6b163f81fc35U,
  0xc08414103fa1ca2aU, 0xbf23b436bfe4c274U, 0x3ef6f2fa40b62205U, 0x40515279bfd676e8U,
  0xc07887fabfd4fa5eU, 0xbf491383bfd2e910U, 0x40130e534094a552U, 0x4007f80bc0234abdU,
  0x40257d533ff0cd41U, 0xc0a5026f3e05f4baU, 0x3f9c3bef409b1c21U, 0x3fc4c6ce3fa883e0U,
  0x3f860e32bea0654fU, 0x3f6287e73d865ab4U, 0x3f275952bfd44f31U, 0xc03f0439c0638e6dU,
  0xbf1fe63a3ec0f622U, 0xbe18d6713e660e4fU, 0xbeae3ce9bfdf6c6cU, 0x3faaa238bf249595U,
  0x3f021ce5bffeb219U, 0xbfbdb9c9c0846fbfU, 0xbf2b8046bf338610U, 0x402715b33f39aa05U,
  0x3f1a679ec00f5a44U, 0xbf64199e3fd27a85U, 0xbfb99b6f4046ad90U, 0xc0e04b7640b63875U,
  0x3fd7cede3c10a17eU, 0xc051ad523d9cea2dU, 0xc03e2dd3c10de27eU, 0x3f9fde5c3f7e3275U,
  0xc023ee953ddf2506U, 0x4051b085402cdd06U, 0xbfed2e473d886122U, 0xc02414c63fd6d7d9U,
  0xbf2f6ed53f354d21U, 0x3f4f5e7cbe87cc00U, 0xbf7b2d3a3fb68bceU, 0xbf4796a840698764U,
  0x3eb73b5f3f521094U, 0xbe48e44f3f557a1aU, 0x3f5613653fa2534eU, 0x3fa03e07bf47c852U,
  0xbdd768d2beb6132dU, 0x3f8550123ecf5ccdU, 0xbf614f67bf4375c7U, 0x3f1dedcb3fe8b149U,
  0xc05147ce3df16f9aU, 0xbf17643ebf7a2f34U, 0xbf9028913f3cf8adU, 0x3fbc53113fb23194U,
  0x3ec1f2c7be8bdafdU, 0xbf7647b6bf19e01dU, 0x3e258c6f403ee365U, 0xbe880df13ef34515U,
  0xbe31daa8bf0d0e92U, 0x3faa14c7bfbeec51U, 0x3ea88689bf33f612U, 0x3f475e663f641fe4U,
  0xbe276d42c0276bf0U, 0x3f373172bf94a807U, 0xbeaed593c0499c2dU, 0xbfce99fbc1455a8bU,
  0xc0a9ee18c043b65cU, 0xc07ddd38bfd8cd36U, 0xc018794d405b8722U, 0xbf880fd2c0de5e48U,
  0x409ab557bf430f66U, 0xc06047d53fbed14dU, 0x4041d2483f9215faU, 0xbf87d8653fc590e3U,
  0xbd954a8d3e866861U, 0x3f09369b3e0afd59U, 0xbe9ab0683e3cf8a6U, 0xbf0b3bfdbf1f8e2eU,
  0x402f96ec3d0795f3U, 0xbebfcd173eaae2bfU, 0x3e8fe8423ed1215dU, 0x3ec34a05be31d578U,
  0x3d549216bed02d0eU, 0xbec5a8ee3b831e64U, 0x40257c543e8b71ccU, 0xbeeac986bd81c6f3U,
  0x3dcfc43c3e90165cU, 0x3f55329d3eafdc86U, 0xbe9f94ddbde49cedU, 0x3e870a853e3ddc15U,
  0x3e3269d13f139789U, 0x3e0abe153ea49732U, 0xbf405b12403a8907U, 0xbf63cc383ee2b12bU,
  0x3eb6167e3f54223fU, 0x3ef441f2bde84841U, 0xbe67c600be5e9d19U, 0xbe6e898ebf157addU,
  0xc03b77d63f6e963eU, 0xbe393a2b40fcf33fU, 0xbf9378c94058dc11U, 0x4015066c40f8e3e3U,
  0x4002d64a40af549aU, 0xbe38af4cbe508f0bU, 0x40103194c1127723U, 0x3f6fa040bf18516dU,
  0xc067f70f3f57b6a4U, 0x3f9b691c4078baddU, 0xc0049eeebf3a7891U, 0x403ce5683ea9a848U,
  0xbfb1e2bc3d568bfdU, 0xbfd0b2023fa8be7fU, 0x40236c5dbfc72987U, 0x3f9c3b27c011a1f0U,
  0xc0441ecb3e742cf4U, 0x3f444814bfcb3072U, 0xbfea61da4057d7f2U, 0xc0060e2bbf9ee0afU,
  0x400be964c039afa3U, 0x3e4dc8a13ff74a9dU, 0x404224064027ef58U, 0xbfcd1b173f76bc6dU,
  0x3fc02a363f28754dU, 0x3e85f6af3fc9fd6aU, 0xbf359456bfc3338eU, 0xbf81ca443eb85e33U,
  0x3f336c1b3fc1b75fU, 0x3d7138783d59d35fU, 0xbed1ae6cbe98600cU, 0xc047132fbe841379U,
  0xbfeab6afbf6df9bbU, 0x3d28a8a0bf6f6888U, 0x3e614204c014d024U, 0xbe0684243e31976aU,
  0x3fdafb64bf0f3ccaU, 0xbf167cd23f0d7bb6U, 0xbf382d17bf3b1cdeU, 0xbe88d2fdc01e4ad0U,
  0xbef21023bf8f712aU, 0xbeef11a13ed7a545U, 0xbe991ae23f52f135U, 0x3f287022bef89385U,
  0x3da14fc63f948f04U, 0xbf5a8891bcf4fad2U, 0xbf04c88bbd4d1dc2U, 0x3edf6a7fbe309053U,
  0x40184c16c0df13d9U, 0xc00f580340be9348U, 0x40a7fb05404ea295U, 0x3cd441b7bfaa828cU,
  0xc040bf5cc0b9699dU, 0x3d4a1a4c40907513U, 0xbeb1fdba3de4d356U, 0x3f22756dbf0eec70U,
  0xbdca29fcbe9cfc07U, 0x3ed5c64d3e8d6f4eU, 0xbe8a9559beaf28bbU, 0x3f123abd3e6e48d8U,
  0x3e4b9885U,
};


ai_handle g_tire_slip_network_weights_table[1 + 2] = {
  AI_HANDLE_PTR(AI_MAGIC_MARKER),
  AI_HANDLE_PTR(s_tire_slip_network_weights_array_u64),
  AI_HANDLE_PTR(AI_MAGIC_MARKER),
};

