/**
  ******************************************************************************
  * @file    tire_slip_network_data_params.c
  * @author  AST Embedded Analytics Research Platform
  * @date    2026-01-15T19:19:35-0700
  * @brief   AI Tool Automatic Code Generator for Embedded NN computing
  ******************************************************************************
  * Copyright (c) 2026 STMicroelectronics.
  * All rights reserved.
  *
  * This software is licensed under terms that can be found in the LICENSE file
  * in the root directory of this software component.
  * If no LICENSE file comes with this software, it is provided AS-IS.
  ******************************************************************************
  */

#include "tire_slip_network_data_params.h"


/**  Activations Section  ****************************************************/
ai_handle g_tire_slip_network_activations_table[1 + 2] = {
  AI_HANDLE_PTR(AI_MAGIC_MARKER),
  AI_HANDLE_PTR(NULL),
  AI_HANDLE_PTR(AI_MAGIC_MARKER),
};




/**  Weights Section  ********************************************************/
AI_ALIGNED(32)
const ai_u64 s_tire_slip_network_weights_array_u64[229] = {
  0xbb3031dfbcdf64adU, 0xbc218eeebd090e84U, 0x3fa4ee5ebe65cbc4U, 0x3c31d32a3c855e67U,
  0xc02dfcc7bfa0cec2U, 0xba277b713de5416dU, 0x3e9312623ddc657eU, 0x3fd760683eeac3caU,
  0x3cb1eb3bbae93d51U, 0xbd23e39ebfb51e16U, 0x3c09a97fbf17634aU, 0xbd91d10d3ca08389U,
  0xbfd7847ebfcc93b0U, 0xbc90ebf9bc8b13aaU, 0xbeaab2813f7cf3bbU, 0x3c15c5443ceb6f5eU,
  0x3e1e8d4e3e0b6d10U, 0xbf060a053d7ff8d7U, 0xbc623f3cbbfec424U, 0xba974e9e3d9b720aU,
  0x3bb0252c403862ebU, 0xbffffcb53c442570U, 0x402512d6bee5c7edU, 0xbc309d83bcd0c3bbU,
  0x403e78f1c001ed15U, 0xbd7456bd406cffc6U, 0xc049a2a13d46387dU, 0x412c13e54008b5aaU,
  0x3da254f83b74b5d5U, 0xbf9c9f83c139e2f9U, 0xbc1ffb60bddc7c45U, 0xbe885a403e3f20bbU,
  0xbf0b8cb7be00b33fU, 0xbc8b2adfbc3498deU, 0xbf6ba4ce3fb4fb48U, 0x3b5c4e7f3ea7d0c7U,
  0x3f5104673cc7281fU, 0xc003f1f23f21d888U, 0xbc105e433d31959aU, 0xbe0f0cc53fc20d6bU,
  0x3c98523b3e9fd643U, 0x3e9e2bafbd134766U, 0x3fd3bb683d9dbe56U, 0xbca18e6b3bd22afdU,
  0x3f245bf1c04b03acU, 0x3c0551893e881f0fU, 0xbe7f552e3c432916U, 0x406a9b92bf2bc2d6U,
  0xbc1d0ff43b0de257U, 0x3e416102c0a06c51U, 0x3c6cc8e4bd86cefcU, 0xbe5542ebbdcb20c9U,
  0xbe71fc903d83db10U, 0xbbc539c3bc2e034bU, 0x3edc87413f8f8237U, 0xbb8109593f7782e7U,
  0x3f240ab0bb942099U, 0xc06be36a3e85b0f9U, 0x3d61aa9bbd0c3ba3U, 0xbdcecf1340b7c936U,
  0xbe0ebad63f7286b9U, 0xbf27231dbebd4359U, 0xbf821571bfabc811U, 0xbf1cc0a5bfa2d9beU,
  0x404e6b8d4045e9e4U, 0xbf0c5fa3be85fee9U, 0x3f685c7b3e431bb6U, 0xbfd3b79abfad4bdfU,
  0xbff292253fc0f38fU, 0xc023ae753fadbf82U, 0x3f58c7e6becd9875U, 0x403eb7963fba4ccaU,
  0xbf6a363a3e6774dbU, 0xc029e89abf1984acU, 0x3f8f6e9cbfa91663U, 0x3f973623bedc5878U,
  0x3ec2c3983ff5c025U, 0xbfa61a043ecb7986U, 0xbf2dc6a63f84195cU, 0x3f6294f1bf0fc4ddU,
  0xbfc514d93efba458U, 0x3e45c254bf331744U, 0xbeff2e173f1c9b46U, 0x3fe3d9f0bf02df9bU,
  0xbf5b74cfc0238493U, 0xbf8fa2a73faf8213U, 0x3ed40887bed424ebU, 0xbdd012cf3ef64325U,
  0x3f1d151dbf9413b9U, 0x3d7929c9be40f9d9U, 0xbf67b794bf2f47daU, 0x3cb323b63fa4fcd2U,
  0xbe935d4e3fa497e3U, 0xbe106114c0d2af83U, 0x3f7db08ebe2fbb3cU, 0x3f7c5da3bf25ad1dU,
  0x3f64f7333f49e684U, 0xbf2abe7f3ec7c543U, 0x3aae65493ea47541U, 0x3f85af71bebf1062U,
  0xbfa6e1bebf835472U, 0xbf7edd183ec9a0adU, 0x3edca1b93f87edb7U, 0xbf88b5fc3f0a6c01U,
  0xbd6c6c7dbf87ed4bU, 0xc0efdc453d97ec7eU, 0x3eaf53fe400134e7U, 0x402b3550bf1c23c7U,
  0x3f64e22a3d6168c0U, 0xbf987d063f6792d0U, 0x4018ed3a3f0d43b7U, 0x3fce17bd3fde94e1U,
  0xbf15c609c0c05436U, 0x3ef2bd8d3d8eb4dfU, 0x401beb59bf73ed11U, 0x40b5ef853fdd5195U,
  0x3ed250c4bfe018a0U, 0xbfd87f7dbf8b1b9dU, 0x3f343c813f206a6fU, 0xbda7c822bfb32725U,
  0x4050a8b73f3ffc3cU, 0xbee30e32bf6d71c9U, 0xbe88f2bb4028cda5U, 0x3f8d6b563e4b650eU,
  0xc0b25adbc06ed209U, 0x3fd2ca153fda45c0U, 0x400b48fd3f8113d5U, 0x3fbedf843ecf8189U,
  0xbeef2616bf97a666U, 0xc0346a4a3fff6c98U, 0x3f29f2683fa55384U, 0x3fb11dc3401c7f6aU,
  0xbe0419473f60f82bU, 0xbf818b68bf677977U, 0x3f362063be73700dU, 0x3cc07318be92ada5U,
  0xc03ef4cf3e81d78fU, 0xbf3b51783f94ff30U, 0xbdf86b123ef7d1beU, 0x3fa08093bf327313U,
  0x3f615e81bfeaa47aU, 0x3d77e9f53ea68be4U, 0xbdce64993f4a4926U, 0x3f0595c9bf855c59U,
  0x3ec7f037bf047640U, 0xbf2d9d53bfc91ee0U, 0xbf6cbc15bf459de9U, 0xbf0c47a3bed84a98U,
  0x40556b64c069d932U, 0x3feec85ebed88e57U, 0xc01135433f2b7e55U, 0xbdd09d73bf401716U,
  0x3f7903723f862691U, 0x4081d2163fc134b8U, 0xbf769a99bf1f99bdU, 0xc0924d6ebe6b1941U,
  0xc087ff04bf744d2aU, 0x3f77fc01be546a27U, 0xbfc12e3d3f832942U, 0x3d68bc7b3fd7d123U,
  0x40b6e6ac4024b039U, 0x3f1d5851bfc1f285U, 0xbf04911fbf32c2a0U, 0x3e0afdf84040f0d7U,
  0x4008c1f23f3dfadfU, 0xbe2ddf2dbeb6d886U, 0xbffd376bbe6b0cd9U, 0xbfcf502bbf02cb72U,
  0x3f05fe033fcbc834U, 0xc0bd7d5bc05c63f0U, 0xbfc81cc3c12d79a7U, 0xc0962ad83f51df46U,
  0x41359f62c14c4e0dU, 0xbf9d220cbfd2eb20U, 0x4013f92a3ef4e2baU, 0x40927061bf98704bU,
  0x403b1b57401093d6U, 0xbfb88de0c0d631b1U, 0xc0bd1426c052b171U, 0xbec2447f3f9a56c6U,
  0xbf83e7963f8f96fcU, 0xbf4925a040103d01U, 0x3fba4337bffff3e3U, 0xbf8792633fb6181fU,
  0x402bcd4cbf8e89e1U, 0x3f81ce20c0a21b96U, 0x3e549655bf69ce64U, 0xbf3cc218bf3de0e9U,
  0x3f82cbd6404dbd80U, 0x3fdbd722c09e51b5U, 0x4024ccc5bfa991f8U, 0xbede731640c7a413U,
  0x3e03e19ebd877b6eU, 0x3c593ae53ecc258dU, 0xbe9cb8633e8cf1f0U, 0xbe750f8dbe88660eU,
  0xbf53e2df3f880528U, 0xbe7ce8d4bd5c4cc7U, 0xbe6ed6473e682f60U, 0x3e679394be4b248dU,
  0x3fec5f94bd9eb8ebU, 0x3f1e40c3bf07d8a9U, 0xbf98945f3ed27886U, 0xc00935893f114073U,
  0x3d865c593f140ba2U, 0x3edca7febf1cf10dU, 0x3ec6fbf83f41254cU, 0x3ecdfd02bed62707U,
  0xbd9134493f020e9bU, 0x3f016b8cbf17579bU, 0xbd0c791a3f0bfa1eU, 0xbced6344bd987c8dU,
  0xbe2cfcf2bef17681U, 0x3de3d7773f525d64U, 0xbead4fda3ea437abU, 0xbe67d79bbe878fc8U,
  0x40bfefacbfb9d620U, 0x4023c071bf0d838eU, 0x4023dd53c04f6667U, 0xc0322232409c6a54U,
  0xc082c79b41645a3cU, 0xbfa0c27c3fe923e0U, 0x3f161b92bef4d850U, 0x3eb0ba823ed16f56U,
  0xbee02c96bea5040cU, 0xbeceaa5c3e60d42bU, 0xbe0790d03ed1022dU, 0x3f16bdeebea60957U,
  0x3d1f94e2U,
};


ai_handle g_tire_slip_network_weights_table[1 + 2] = {
  AI_HANDLE_PTR(AI_MAGIC_MARKER),
  AI_HANDLE_PTR(s_tire_slip_network_weights_array_u64),
  AI_HANDLE_PTR(AI_MAGIC_MARKER),
};

